{"0": "\u0000", "1": "\u0001", "2": "\u0002", "3": "\u0003", "4": "\u0004", "5": "\u0005", "6": "\u0006", "7": "\u0007", "8": "\b", "9": "\t", "10": "\n", "11": "\u000b", "12": "\f", "13": "\r", "14": "\u000e", "15": "\u000f", "16": "\u0010", "17": "\u0011", "18": "\u0012", "19": "\u0013", "20": "\u0014", "21": "\u0015", "22": "\u0016", "23": "\u0017", "24": "\u0018", "25": "\u0019", "26": "\u001a", "27": "\u001b", "28": "\u001c", "29": "\u001d", "30": "\u001e", "31": "\u001f", "32": " ", "33": "!", "34": "\"", "35": "#", "36": "$", "37": "%", "38": "&", "39": "'", "40": "(", "41": ")", "42": "*", "43": "+", "44": ",", "45": "-", "46": ".", "47": "/", "48": "0", "49": "1", "50": "2", "51": "3", "52": "4", "53": "5", "54": "6", "55": "7", "56": "8", "57": "9", "58": ":", "59": ";", "60": "<", "61": "=", "62": ">", "63": "?", "64": "@", "65": "A", "66": "B", "67": "C", "68": "D", "69": "E", "70": "F", "71": "G", "72": "H", "73": "I", "74": "J", "75": "K", "76": "L", "77": "M", "78": "N", "79": "O", "80": "P", "81": "Q", "82": "R", "83": "S", "84": "T", "85": "U", "86": "V", "87": "W", "88": "X", "89": "Y", "90": "Z", "91": "[", "92": "\\", "93": "]", "94": "^", "95": "_", "96": "`", "97": "a", "98": "b", "99": "c", "100": "d", "101": "e", "102": "f", "103": "g", "104": "h", "105": "i", "106": "j", "107": "k", "108": "l", "109": "m", "110": "n", "111": "o", "112": "p", "113": "q", "114": "r", "115": "s", "116": "t", "117": "u", "118": "v", "119": "w", "120": "x", "121": "y", "122": "z", "123": "{", "124": "|", "125": "}", "126": "~", "127": "\u007f", "128": "\udc80", "129": "\udc81", "130": "\udc82", "131": "\udc83", "132": "\udc84", "133": "\udc85", "134": "\udc86", "135": "\udc87", "136": "\udc88", "137": "\udc89", "138": "\udc8a", "139": "\udc8b", "140": "\udc8c", "141": "\udc8d", "142": "\udc8e", "143": "\udc8f", "144": "\udc90", "145": "\udc91", "146": "\udc92", "147": "\udc93", "148": "\udc94", "149": "\udc95", "150": "\udc96", "151": "\udc97", "152": "\udc98", "153": "\udc99", "154": "\udc9a", "155": "\udc9b", "156": "\udc9c", "157": "\udc9d", "158": "\udc9e", "159": "\udc9f", "160": "\udca0", "161": "\udca1", "162": "\udca2", "163": "\udca3", "164": "\udca4", "165": "\udca5", "166": "\udca6", "167": "\udca7", "168": "\udca8", "169": "\udca9", "170": "\udcaa", "171": "\udcab", "172": "\udcac", "173": "\udcad", "174": "\udcae", "175": "\udcaf", "176": "\udcb0", "177": "\udcb1", "178": "\udcb2", "179": "\udcb3", "180": "\udcb4", "181": "\udcb5", "182": "\udcb6", "183": "\udcb7", "184": "\udcb8", "185": "\udcb9", "186": "\udcba", "187": "\udcbb", "188": "\udcbc", "189": "\udcbd", "190": "\udcbe", "191": "\udcbf", "192": "\udcc0", "193": "\udcc1", "194": "\udcc2", "195": "\udcc3", "196": "\udcc4", "197": "\udcc5", "198": "\udcc6", "199": "\udcc7", "200": "\udcc8", "201": "\udcc9", "202": "\udcca", "203": "\udccb", "204": "\udccc", "205": "\udccd", "206": "\udcce", "207": "\udccf", "208": "\udcd0", "209": "\udcd1", "210": "\udcd2", "211": "\udcd3", "212": "\udcd4", "213": "\udcd5", "214": "\udcd6", "215": "\udcd7", "216": "\udcd8", "217": "\udcd9", "218": "\udcda", "219": "\udcdb", "220": "\udcdc", "221": "\udcdd", "222": "\udcde", "223": "\udcdf", "224": "\udce0", "225": "\udce1", "226": "\udce2", "227": "\udce3", "228": "\udce4", "229": "\udce5", "230": "\udce6", "231": "\udce7", "232": "\udce8", "233": "\udce9", "234": "\udcea", "235": "\udceb", "236": "\udcec", "237": "\udced", "238": "\udcee", "239": "\udcef", "240": "\udcf0", "241": "\udcf1", "242": "\udcf2", "243": "\udcf3", "244": "\udcf4", "245": "\udcf5", "246": "\udcf6", "247": "\udcf7", "248": "\udcf8", "249": "\udcf9", "250": "\udcfa", "251": "\udcfb", "252": "\udcfc", "253": "\udcfd", "254": "\udcfe", "255": "\udcff", "256": "<|endofeof|>", "257": " t", "258": "he", "259": " a", "260": " s", "261": " w", "262": "nd", "263": " the", "264": "ed", "265": " b", "266": " to", "267": " and", "268": " h", "269": " f", "270": " T", "271": "in", "272": " wa", "273": "re", "274": "it", "275": "ou", "276": " l", "277": " d", "278": " c", "279": " p", "280": "ay", "281": " m", "282": "er", "283": " was", "284": " The", "285": "om", "286": " he", "287": "is", "288": " n", "289": "im", "290": "ar", "291": "on", "292": " sa", "293": "ll", "294": "id", "295": " ha", "296": " g", "297": "at", "298": " S", "299": "ing", "300": "ot", "301": "en", "302": "an", "303": "le", "304": "or", "305": "end", "306": "ir", "307": "of", "308": "am", "309": "et", "310": " H", "311": " it", "312": " th", "313": "ig", "314": " They", "315": " pl", "316": " in", "317": "il", "318": " He", "319": " \"", "320": "ow", "321": "ver", "322": "ri", "323": " u", "324": "ut", "325": " play", "326": "ith", "327": " said", "328": " be", "329": " day", "330": " with", "331": "pp", "332": "On", "333": " y", "334": "ked", "335": "oo", "336": " r", "337": " her", "338": "ex", "339": "ce", "340": "ld", "341": " his", "342": " Tim", "343": " I", "344": " She", "345": " st", "346": "ke", "347": " big", "348": "nt", "349": "ck", "350": "very", "351": " you", "352": "st", "353": "ve", "354": "un", "355": " happ", "356": " on", "357": "all", "358": "riend", "359": " friend", "360": "ext", "361": " they", "362": "oft", "363": " L", "364": "ily", "365": " we", "366": " had", "367": " up", "368": " li", "369": " not", "370": "her", "371": " want", "372": "itt", "373": " of", "374": "|>", "375": "oftext", "376": "endoftext", "377": "<|", "378": "ad", "379": " do", "380": " B", "381": " e", "382": "se", "383": " happy", "384": "ent", "385": " very", "386": " M", "387": "es", "388": " saw", "389": "One", "390": " that", "391": "ould", "392": "'s", "393": " for", "394": "ittle", "395": " mom", "396": " little", "397": " sh", "398": " she", "399": "ime", "400": "ch", "401": " nam", "402": " time", "403": " k", "404": " so", "405": "ound", "406": ".\"", "407": " there", "408": " named", "409": " bo", "410": " sm", "411": " were", "412": " wanted", "413": " Lily", "414": " ne", "415": " friends", "416": "out", "417": "ird", "418": " but", "419": "ved", "420": "ht", "421": "!\"", "422": "The", "423": " Tom", "424": " bird", "425": "el", "426": "ake", "427": " an", "428": "al", "429": " too", "430": "ome", "431": " went", "432": " wh", "433": "ide", "434": "Once", "435": " all", "436": " It", "437": " hel", "438": "ug", "439": "ue", "440": " help", "441": " is", "442": " loo", "443": " A", "444": " upon", "445": " lo", "446": "ter", "447": "ry", "448": " toy", "449": "ore", "450": " fun", "451": "ind", "452": "get", "453": "ill", "454": "ame", "455": " as", "456": " j", "457": "ra", "458": " at", "459": "gether", "460": " o", "461": " cat", "462": " did", "463": " re", "464": "ur", "465": " together", "466": "ack", "467": " se", "468": "ly", "469": " tre", "470": "ood", "471": " dog", "472": "ic", "473": " could", "474": "ted", "475": " can", "476": " ball", "477": "ard", "478": " gir", "479": " their", "480": "ark", "481": " girl", "482": " played", "483": "ec", "484": "my", "485": " him", "486": " ro", "487": " go", "488": "way", "489": "?\"", "490": "hed", "491": "ain", "492": " kn", "493": " le", "494": " out", "495": "hen", "496": " are", "497": " fr", "498": "um", "499": "'t", "500": " them", "501": " boy", "502": " sad", "503": "ul", "504": "ax", "505": " tree", "506": "other", "507": "oug", "508": " man", "509": " loved", "510": " have", "511": " cl", "512": " found", "513": " looked", "514": " sp", "515": " Sue", "516": " star", "517": " sc", "518": "one", "519": " back", "520": "own", "521": "hing", "522": "are", "523": " Max", "524": " like", "525": " bec", "526": "side", "527": "ful", "528": " me", "529": "op", "530": "ong", "531": " park", "532": " would", "533": "ight", "534": " liked", "535": "round", "536": " One", "537": "elt", "538": " fa", "539": " make", "540": " car", "541": "ell", "542": " But", "543": " felt", "544": " la", "545": " W", "546": " asked", "547": " Sam", "548": "You", "549": "ared", "550": "omet", "551": "ice", "552": " came", "553": " started", "554": " new", "555": "ag", "556": " see", "557": " no", "558": "ought", "559": "ouse", "560": " Ben", "561": " al", "562": "iled", "563": " ag", "564": " other", "565": " good", "566": "pot", "567": " somet", "568": " small", "569": " br", "570": "ob", "571": "ss", "572": " smiled", "573": "ade", "574": "ried", "575": "ings", "576": " say", "577": " find", "578": " wor", "579": " away", "580": " from", "581": " thought", "582": " made", "583": " Spot", "584": " what", "585": " ex", "586": " home", "587": " playing", "588": "ened", "589": " something", "590": "ty", "591": " put", "592": " every", "593": " wal", "594": " co", "595": "ach", "596": " mu", "597": "ia", "598": "uc", "599": "ook", "600": "ie", "601": "ny", "602": " F", "603": " again", "604": " ran", "605": " down", "606": "ile", "607": "dd", "608": "arn", "609": " toys", "610": "ave", "611": " pr", "612": "king", "613": " scared", "614": " some", "615": " took", "616": " laug", "617": " J", "618": " house", "619": " fl", "620": "if", "621": "ab", "622": " around", "623": " box", "624": " sw", "625": "ure", "626": "ick", "627": " learn", "628": "ep", "629": "ret", "630": "ish", "631": "oud", "632": "uck", "633": " your", "634": " lived", "635": " You", "636": " things", "637": " sun", "638": " then", "639": " will", "640": "ew", "641": " bl", "642": " my", "643": "as", "644": " when", "645": " ab", "646": "pped", "647": ",\"", "648": "us", "649": " get", "650": "ank", "651": "Tim", "652": "Th", "653": " ch", "654": " lot", "655": "ucy", "656": "oth", "657": "ap", "658": "ump", "659": " Mia", "660": " who", "661": " tried", "662": "ist", "663": " fe", "664": " know", "665": " got", "666": "ited", "667": "ust", "668": " many", "669": " about", "670": " says", "671": " int", "672": "ally", "673": "nder", "674": " red", "675": " knew", "676": " pret", "677": "ive", "678": " dec", "679": "Lily", "680": "ise", "681": "ous", "682": " any", "683": "au", "684": " D", "685": "ace", "686": " care", "687": " more", "688": " pic", "689": "qu", "690": " best", "691": "ause", "692": " op", "693": "fter", "694": " became", "695": " Lucy", "696": " po", "697": " water", "698": "ways", "699": "\udce2\udc80", "700": "fe", "701": " hug", "702": " learned", "703": " Bob", "704": " exc", "705": " because", "706": "ite", "707": " always", "708": " look", "709": " v", "710": " outside", "711": " into", "712": " room", "713": " both", "714": " un", "715": "ided", "716": " show", "717": " laughed", "718": " So", "719": " eat", "720": " decided", "721": " And", "722": " ho", "723": " gre", "724": "urp", "725": "udd", "726": "ant", "727": " pe", "728": "ers", "729": " E", "730": " Mom", "731": " jump", "732": "nn", "733": " long", "734": " one", "735": " ke", "736": " this", "737": " run", "738": " nice", "739": "Yes", "740": " excited", "741": " fast", "742": "They", "743": "Tom", "744": " feel", "745": " dad", "746": " told", "747": " mo", "748": " sk", "749": " inside", "750": "our", "751": " am", "752": " tr", "753": " sl", "754": "ull", "755": "lew", "756": " sor", "757": " take", "758": "urpr", "759": " rock", "760": "iny", "761": " pretty", "762": "nna", "763": " surpr", "764": " gave", "765": " each", "766": " gra", "767": "imal", "768": "ink", "769": " animal", "770": " much", "771": " how", "772": "Wh", "773": " str", "774": " old", "775": " need", "776": "But", "777": " than", "778": " let", "779": "ven", "780": "ara", "781": "ro", "782": "ged", "783": " tow", "784": "ess", "785": " under", "786": " C", "787": " sorry", "788": " or", "789": " walked", "790": " cle", "791": "and", "792": " ta", "793": " hand", "794": "ge", "795": "ised", "796": "og", "797": " fish", "798": "urn", "799": " te", "800": "urt", "801": " kind", "802": "ff", "803": " clo", "804": " His", "805": " wat", "806": "ving", "807": " hig", "808": " animals", "809": "ase", "810": " Amy", "811": " just", "812": " us", "813": " happened", "814": "ched", "815": " food", "816": "pl", "817": " sky", "818": " flow", "819": "here", "820": " sn", "821": "rom", "822": " try", "823": " list", "824": " ide", "825": " We", "826": " near", "827": "gry", "828": " didn", "829": " idea", "830": " bet", "831": " en", "832": "able", "833": "ate", "834": "ine", "835": " fi", "836": " flew", "837": "eci", "838": " its", "839": "ream", "840": "Thank", "841": " careful", "842": " share", "843": " cake", "844": " heard", "845": " better", "846": " tw", "847": " stor", "848": " if", "849": "ecial", "850": " special", "851": " dan", "852": "pec", "853": "ber", "854": "ion", "855": " Th", "856": " bear", "857": " lots", "858": " wind", "859": "lf", "860": "more", "861": " anymore", "862": "udden", "863": " clean", "864": " never", "865": " fo", "866": " don", "867": "Mom", "868": " gr", "869": " bug", "870": " tal", "871": "ople", "872": " com", "873": " hard", "874": " bu", "875": " end", "876": " Then", "877": " by", "878": " fly", "879": "uddenly", "880": " mag", "881": "ort", "882": " turn", "883": " fore", "884": " over", "885": " Anna", "886": " Every", "887": " even", "888": "rm", "889": " love", "890": "\n\n", "891": " col", "892": " safe", "893": " people", "894": " after", "895": " bad", "896": "ady", "897": " high", "898": " fam", "899": " ground", "900": "ak", "901": " door", "902": "imb", "903": " come", "904": "bb", "905": " shiny", "906": " proud", "907": "As", "908": " opened", "909": " climb", "910": "uff", "911": " hurt", "912": " picked", "913": " blue", "914": " loud", "915": "pected", "916": "Let", "917": " che", "918": " give", "919": " way", "920": " surprised", "921": " gl", "922": "'m", "923": "expected", "924": " unexpected", "925": "ild", "926": " thanked", "927": " cu", "928": " book", "929": "ummy", "930": " When", "931": " From", "932": " call", "933": " color", "934": " Her", "935": " far", "936": "arden", "937": " garden", "938": " magic", "939": " ever", "940": " K", "941": " par", "942": "ough", "943": "kay", "944": " im", "945": " hugged", "946": " still", "947": " place", "948": "No", "949": " unt", "950": "ool", "951": " off", "952": " Sara", "953": "age", "954": " ma", "955": " smile", "956": " walk", "957": " P", "958": " jumped", "959": " family", "960": " In", "961": " until", "962": "unny", "963": "iz", "964": "ture", "965": "hes", "966": " pa", "967": "em", "968": " should", "969": " qu", "970": " now", "971": "ip", "972": " kid", "973": "ct", "974": " stick", "975": "itty", "976": " stay", "977": " strong", "978": " forest", "979": " sto", "980": "ane", "981": " dra", "982": "aut", "983": " app", "984": "uffy", "985": "dy", "986": " bro", "987": " boat", "988": " great", "989": " squ", "990": " bra", "991": " beaut", "992": " tra", "993": " next", "994": " jo", "995": " helped", "996": " Sally", "997": "lease", "998": " hat", "999": "les"}